TRT-101600-MinMaxCalibration
images: 3c010204
/model.0/conv/Conv_output_0: 3f6a90a8
/model.0/act/Sigmoid_output_0: 3c010204
/model.0/act/Mul_output_0: 3f68ce9d
/model.1/conv/Conv_output_0: 400ba22b
/model.1/act/Sigmoid_output_0: 3c010204
/model.1/act/Mul_output_0: 400ba22b
/model.2/cv1/conv/Conv_output_0: 3f80dfd1
/model.2/cv1/act/Sigmoid_output_0: 3c010204
/model.2/cv1/act/Mul_output_0: 3effbe2a
/model.2/Split_output_0: 3effbe2a
/model.2/Split_output_1: 3e9acc8d
/model.2/m.0/cv1/conv/Conv_output_0: 3f4931d6
/model.2/m.0/cv1/act/Sigmoid_output_0: 3c010204
/model.2/m.0/cv1/act/Mul_output_0: 3f055f73
/model.2/m.0/cv2/conv/Conv_output_0: 3f51b609
/model.2/m.0/cv2/act/Sigmoid_output_0: 3c010204
/model.2/m.0/cv2/act/Mul_output_0: 3ee9216d
/model.2/m.0/Add_output_0: 3ee8cd99
/model.2/Concat_output_0: 3effbe2a
/model.2/cv2/conv/Conv_output_0: 3f221f97
/model.2/cv2/act/Sigmoid_output_0: 3c010204
/model.2/cv2/act/Mul_output_0: 3e644c74
/model.3/conv/Conv_output_0: 3e389754
/model.3/act/Sigmoid_output_0: 3c010204
/model.3/act/Mul_output_0: 3e0c16a4
/model.4/cv1/conv/Conv_output_0: 3e5b48f7
/model.4/cv1/act/Sigmoid_output_0: 3c010204
/model.4/cv1/act/Mul_output_0: 3e5b48f7
/model.4/Split_output_0: 3e5b48f7
/model.4/Split_output_1: 3d9ebdb0
/model.4/m.0/cv1/conv/Conv_output_0: 3dfeaf6d
/model.4/m.0/cv1/act/Sigmoid_output_0: 3c0101dd
/model.4/m.0/cv1/act/Mul_output_0: 3dc5ffe0
/model.4/m.0/cv2/conv/Conv_output_0: 3e062ddc
/model.4/m.0/cv2/act/Sigmoid_output_0: 3c00ff82
/model.4/m.0/cv2/act/Mul_output_0: 3d98ee28
/model.4/m.0/Add_output_0: 3db5e798
/model.4/m.1/cv1/conv/Conv_output_0: 3dfc5bed
/model.4/m.1/cv1/act/Sigmoid_output_0: 3c010169
/model.4/m.1/cv1/act/Mul_output_0: 3dafc49c
/model.4/m.1/cv2/conv/Conv_output_0: 3e31f5d6
/model.4/m.1/cv2/act/Sigmoid_output_0: 3c010204
/model.4/m.1/cv2/act/Mul_output_0: 3e212df6
/model.4/m.1/Add_output_0: 3e36902c
/model.4/Concat_output_0: 3e5b48f7
/model.4/cv2/conv/Conv_output_0: 3e23f938
/model.4/cv2/act/Sigmoid_output_0: 3c010204
/model.4/cv2/act/Mul_output_0: 3e1047c8
/model.5/conv/Conv_output_0: 3e05ef28
/model.5/act/Sigmoid_output_0: 3c010204
/model.5/act/Mul_output_0: 3e05ef28
/model.6/cv1/conv/Conv_output_0: 3e2f8367
/model.6/cv1/act/Sigmoid_output_0: 3c010204
/model.6/cv1/act/Mul_output_0: 3e1425ee
/model.6/Split_output_0: 3e1425ee
/model.6/Split_output_1: 3def9c23
/model.6/m.0/cv1/conv/Conv_output_0: 3dee8b71
/model.6/m.0/cv1/act/Sigmoid_output_0: 3c0101f3
/model.6/m.0/cv1/act/Mul_output_0: 3dd38fc7
/model.6/m.0/cv2/conv/Conv_output_0: 3df936ea
/model.6/m.0/cv2/act/Sigmoid_output_0: 3c0101f5
/model.6/m.0/cv2/act/Mul_output_0: 3dd50f6a
/model.6/m.0/Add_output_0: 3deef7f2
/model.6/m.1/cv1/conv/Conv_output_0: 3ded3246
/model.6/m.1/cv1/act/Sigmoid_output_0: 3c0101d8
/model.6/m.1/cv1/act/Mul_output_0: 3dc4413c
/model.6/m.1/cv2/conv/Conv_output_0: 3e5ead6f
/model.6/m.1/cv2/act/Sigmoid_output_0: 3c010204
/model.6/m.1/cv2/act/Mul_output_0: 3e3a17d1
/model.6/m.1/Add_output_0: 3e38ac8a
/model.6/Concat_output_0: 3e38ac8a
/model.6/cv2/conv/Conv_output_0: 3e1001f8
/model.6/cv2/act/Sigmoid_output_0: 3c010204
/model.6/cv2/act/Mul_output_0: 3e1001f8
/model.7/conv/Conv_output_0: 3df1b96b
/model.7/act/Sigmoid_output_0: 3c010201
/model.7/act/Mul_output_0: 3df1b965
/model.8/cv1/conv/Conv_output_0: 3e1f49e5
/model.8/cv1/act/Sigmoid_output_0: 3c010204
/model.8/cv1/act/Mul_output_0: 3e1f49e5
/model.8/Split_output_0: 3e1f49e5
/model.8/Split_output_1: 3dea023a
/model.8/m.0/cv1/conv/Conv_output_0: 3dfcb230
/model.8/m.0/cv1/act/Sigmoid_output_0: 3c010203
/model.8/m.0/cv1/act/Mul_output_0: 3dfcb22e
/model.8/m.0/cv2/conv/Conv_output_0: 3e71f739
/model.8/m.0/cv2/act/Sigmoid_output_0: 3c010204
/model.8/m.0/cv2/act/Mul_output_0: 3e71f739
/model.8/m.0/Add_output_0: 3e711f0b
/model.8/Concat_output_0: 3e711f0b
/model.8/cv2/conv/Conv_output_0: 3e25bf0b
/model.8/cv2/act/Sigmoid_output_0: 3c010204
/model.8/cv2/act/Mul_output_0: 3e0c3f14
/model.9/cv1/conv/Conv_output_0: 3e3d2b15
/model.9/m/MaxPool_output_0: 3e3d2b15
/model.9/m_1/MaxPool_output_0: 3e3d2b15
/model.9/m_2/MaxPool_output_0: 3e3d2b15
/model.9/Concat_output_0: 3e3d2b15
/model.9/cv2/conv/Conv_output_0: 3db02c3a
/model.9/cv2/act/Sigmoid_output_0: 3c00fb4b
/model.9/cv2/act/Mul_output_0: 3d89036d
/model.10/Resize_output_0: 3d89036d
/model.11/Concat_output_0: 3e1001f8
/model.12/cv1/conv/Conv_output_0: 3e0bf045
/model.12/cv1/act/Sigmoid_output_0: 3c0101dc
/model.12/cv1/act/Mul_output_0: 3dc5a1d9
/model.12/Split_output_0: 3dbcbfcd
/model.12/Split_output_1: 3dc5a1d9
/model.12/m.0/cv1/conv/Conv_output_0: 3deaa200
/model.12/m.0/cv1/act/Sigmoid_output_0: 3c0101b1
/model.12/m.0/cv1/act/Mul_output_0: 3dba0410
/model.12/m.0/cv2/conv/Conv_output_0: 3e28bc10
/model.12/m.0/cv2/act/Sigmoid_output_0: 3c010204
/model.12/m.0/cv2/act/Mul_output_0: 3e1d7692
/model.12/Concat_output_0: 3e1d7692
/model.12/cv2/conv/Conv_output_0: 3ea06aa0
/model.12/cv2/act/Sigmoid_output_0: 3c010204
/model.12/cv2/act/Mul_output_0: 3e0e48da
/model.13/Resize_output_0: 3e0e48da
/model.14/Concat_output_0: 3e1047c8
/model.15/cv1/conv/Conv_output_0: 3e007967
/model.15/cv1/act/Sigmoid_output_0: 3c01012c
/model.15/cv1/act/Mul_output_0: 3daa87f9
/model.15/Split_output_0: 3daa87f9
/model.15/Split_output_1: 3d6ad215
/model.15/m.0/cv1/conv/Conv_output_0: 3db44f0a
/model.15/m.0/cv1/act/Sigmoid_output_0: 3c00fef5
/model.15/m.0/cv1/act/Mul_output_0: 3d95ccbb
/model.15/m.0/cv2/conv/Conv_output_0: 3e08ead5
/model.15/m.0/cv2/act/Sigmoid_output_0: 3c010202
/model.15/m.0/cv2/act/Mul_output_0: 3df6dfeb
/model.15/Concat_output_0: 3df6dfeb
/model.15/cv2/conv/Conv_output_0: 3e11688a
/model.15/cv2/act/Sigmoid_output_0: 3c0101fb
/model.15/cv2/act/Mul_output_0: 3dde3010
/model.16/conv/Conv_output_0: 3e22ffaa
/model.22/cv2.0/cv2.0.0/conv/Conv_output_0: 3e313937
/model.22/cv3.0/cv3.0.0/conv/Conv_output_0: 3e399de6
/model.16/act/Sigmoid_output_0: 3c010204
/model.22/cv2.0/cv2.0.0/act/Sigmoid_output_0: 3c0101fd
/model.22/cv3.0/cv3.0.0/act/Sigmoid_output_0: 3c010204
/model.16/act/Mul_output_0: 3e14ae51
/model.22/cv2.0/cv2.0.0/act/Mul_output_0: 3de2634d
/model.22/cv3.0/cv3.0.0/act/Mul_output_0: 3e399de6
/model.17/Concat_output_0: 3e14ae51
/model.22/cv2.0/cv2.0.1/conv/Conv_output_0: 3ec44630
/model.22/cv3.0/cv3.0.1/conv/Conv_output_0: 3fc54e2d
/model.18/cv1/conv/Conv_output_0: 3e664b90
/model.22/cv2.0/cv2.0.1/act/Sigmoid_output_0: 3c010204
/model.22/cv3.0/cv3.0.1/act/Sigmoid_output_0: 3c010204
/model.18/cv1/act/Sigmoid_output_0: 3c010204
/model.22/cv2.0/cv2.0.1/act/Mul_output_0: 3e8d72ef
/model.22/cv3.0/cv3.0.1/act/Mul_output_0: 3f6f272d
/model.18/cv1/act/Mul_output_0: 3e102fec
/model.22/cv2.0/cv2.0.2/Conv_output_0: 3f10d7d4
/model.22/cv3.0/cv3.0.2/Conv_output_0: 3f23e24c
/model.18/Split_output_0: 3e102fec
/model.18/Split_output_1: 3e0303b6
/model.22/Reshape_output_0: 3f10d7d4
/model.22/Reshape_3_output_0: 3f23e24c
/model.18/m.0/cv1/conv/Conv_output_0: 3df61183
/model.18/m.0/cv1/act/Sigmoid_output_0: 3c010202
/model.18/m.0/cv1/act/Mul_output_0: 3df6117f
/model.18/m.0/cv2/conv/Conv_output_0: 3e5e664c
/model.18/m.0/cv2/act/Sigmoid_output_0: 3c010204
/model.18/m.0/cv2/act/Mul_output_0: 3e483968
/model.18/Concat_output_0: 3e483968
/model.18/cv2/conv/Conv_output_0: 3eb2f4d1
/model.18/cv2/act/Sigmoid_output_0: 3c010204
/model.18/cv2/act/Mul_output_0: 3e52883c
/model.19/conv/Conv_output_0: 3e39df5a
/model.22/cv2.1/cv2.1.0/conv/Conv_output_0: 3e3290e7
/model.22/cv3.1/cv3.1.0/conv/Conv_output_0: 3e415d90
/model.19/act/Sigmoid_output_0: 3c010204
/model.22/cv2.1/cv2.1.0/act/Sigmoid_output_0: 3c010204
/model.22/cv3.1/cv3.1.0/act/Sigmoid_output_0: 3c010204
/model.19/act/Mul_output_0: 3e39df5a
/model.22/cv2.1/cv2.1.0/act/Mul_output_0: 3e04d3a3
/model.22/cv3.1/cv3.1.0/act/Mul_output_0: 3e415d90
/model.20/Concat_output_0: 3e39df5a
/model.22/cv2.1/cv2.1.1/conv/Conv_output_0: 3e9ac816
/model.22/cv3.1/cv3.1.1/conv/Conv_output_0: 3ffdec44
/model.21/cv1/conv/Conv_output_0: 3e5fb33a
/model.22/cv2.1/cv2.1.1/act/Sigmoid_output_0: 3c010204
/model.22/cv3.1/cv3.1.1/act/Sigmoid_output_0: 3c010204
/model.21/cv1/act/Sigmoid_output_0: 3c010204
/model.22/cv2.1/cv2.1.1/act/Mul_output_0: 3e5d6fd2
/model.22/cv3.1/cv3.1.1/act/Mul_output_0: 3fbc91f0
/model.21/cv1/act/Mul_output_0: 3e5fb33a
/model.22/cv2.1/cv2.1.2/Conv_output_0: 3ead9bba
/model.22/cv3.1/cv3.1.2/Conv_output_0: 3f859745
/model.21/Split_output_0: 3e5fb33a
/model.21/Split_output_1: 3e367816
/model.22/Reshape_1_output_0: 3ead9bba
/model.22/Reshape_4_output_0: 3f859745
/model.21/m.0/cv1/conv/Conv_output_0: 3e090d68
/model.21/m.0/cv1/act/Sigmoid_output_0: 3c010204
/model.21/m.0/cv1/act/Mul_output_0: 3e08ee5f
/model.21/m.0/cv2/conv/Conv_output_0: 3e506db5
/model.21/m.0/cv2/act/Sigmoid_output_0: 3c010204
/model.21/m.0/cv2/act/Mul_output_0: 3e506db5
/model.21/Concat_output_0: 3e5fb33a
/model.21/cv2/conv/Conv_output_0: 3e95ca18
/model.21/cv2/act/Sigmoid_output_0: 3c010204
/model.21/cv2/act/Mul_output_0: 3e95ca18
/model.22/cv2.2/cv2.2.0/conv/Conv_output_0: 3eba8fcb
/model.22/cv3.2/cv3.2.0/conv/Conv_output_0: 3e98d1a0
/model.22/cv2.2/cv2.2.0/act/Sigmoid_output_0: 3c010204
/model.22/cv3.2/cv3.2.0/act/Sigmoid_output_0: 3c010204
/model.22/cv2.2/cv2.2.0/act/Mul_output_0: 3eba8fcb
/model.22/cv3.2/cv3.2.0/act/Mul_output_0: 3e98d1a0
/model.22/cv2.2/cv2.2.1/conv/Conv_output_0: 3ecd111d
/model.22/cv3.2/cv3.2.1/conv/Conv_output_0: 3f80178b
/model.22/cv2.2/cv2.2.1/act/Sigmoid_output_0: 3c010204
/model.22/cv3.2/cv3.2.1/act/Sigmoid_output_0: 3c010204
/model.22/cv2.2/cv2.2.1/act/Mul_output_0: 3ecd111d
/model.22/cv3.2/cv3.2.1/act/Mul_output_0: 3f5c88ec
/model.22/cv2.2/cv2.2.2/Conv_output_0: 3f275089
/model.22/cv3.2/cv3.2.2/Conv_output_0: 3f52080e
/model.22/Reshape_2_output_0: 3f275089
/model.22/Reshape_5_output_0: 3f52080e
/model.22/Concat_output_0: 3f275089
/model.22/Concat_1_output_0: 3f859745
/model.22/dfl/Reshape_output_0: 3f275089
/model.22/Sigmoid_output_0: 3bfcfbca
/model.22/dfl/Transpose_output_0: 3f275089
/model.22/dfl/Softmax_output: 3c00f98e
/model.22/dfl/Softmax_output_0: 3c00f98e
/model.22/dfl/conv/Conv_output_0: 3debaf0c
/model.22/dfl/Reshape_1_output_0: 3debaf0c
/model.22/Constant_15_output_0_output: 3e810204
/model.22/Slice_1_output_0: 3debaf0c
ONNXTRT_Broadcast_output: 3c810204
output0: 40a396ee
/model.22/Constant_12_output_0_output: 3f204081
/model.22/Sub_output_0: 3f202aef
/model.22/Sub_1_output_0: 3e688857
/model.22/Add_2_output_0: 3fa0c6d7
/model.22/Slice_output_0: 3de8818c
/model.22/Constant_13_output_0_output: 3f204081
/model.22/Add_1_output_0: 3f3247a5
/model.22/Constant_14_output_0_output: 3c810204
/model.22/Div_1_output_0: 3f20c6d7
/model.22/Concat_2_output_0: 3f20c6d7
ONNXTRT_Broadcast_95_output: 3e810204
/model.22/Mul_2_output_0: 40a396ee
